2
conv1.weight 150 be40ee1b bd20baba bdc4bc53 bd5a7ead be34eb87 3da45e40 be379573 bc50cd80 3d8e61ca bd8a10fd 3de869e3 3ccea540 3de12853 3e036697 bdb4d110 3d94db93 bdb136a7 3d8064c0 bdd602e0 3dbd77e0 3d25d7da bda04b4d bdc8e833 3d53f24d 3e3f153b 3dc49100 bc9e35f3 bc1f0ce7 3de8cfe0 be0e566a 3d882bca bd87b8fa 3decfc9a bd921cdd 3c22079a 3d8a5077 3e0cbe9d bcf0d14d 3e3ad65d be2d452f bd1220a0 be4c38bb 3c87b99a 3d687907 bda5cf10 3daa1dcd bd04ccba be31f7fd 3e1d3b52 3dfc8b5a 3dcf18d0 3e235c78 3d969e3d 3dd9c7bd 3e29f32a bd250dfa be1fb983 bdc9702a bcdab60d bcb409cd bab1ab33 3deabaf0 3d836560 be176d6d bd761793 bd40b76d 3df949c3 bd949827 bdab5ecd bd03b61a bd50617a bd49b347 be48627f 3e367965 3dd9ffaa bdc1d137 bdff9017 3be3ff33 3de9611d be12f913 bd9ab2a3 3dab5367 be041958 bcb66f9a be1a7073 3e3df4ad 3ddcca7a be3d4d40 bde22553 3d913227 3c3395cd 3d59187a be278ae8 bddb50fd 3db9d9d3 be1c2912 bd2bd540 3db41fa0 3dd496dd 3c4bbe1a 3d6d7a8d 3db634e3 bcbf67cd bd5fd4ba 3e1c65a2 3e47a4b0 3dbdba30 bdb30ced be3224e0 be4a2410 3ab558cd bd9d27d0 bd4e258d bce665e7 3e41ae93 3e422007 bc992f1a bd75fd6d 3dc6eab7 bc82bd40 be42de88 3d85842d 3e4410f2 be2256e3 bd30ecfa 3d31a7f3 be26c542 be2f577a 3e18e3db bd91099a 3deeee50 3c92781a 3d47dfd3 be087dd7 bd2ef593 3e0718b7 3dbbde50 bd6cd9fa 3cc98dda 3e1ccc72 be3371fa 3e038d8b bd7633d3 bd26a793 3dc2e987 be2a23ad bcf78333 3e43b622 3d936b0d bd977517
conv1.bias 6 bd32705a 3e2182a8 3d9ac003 3e0ad417 be03e195 3d6c2d8d
